00037f0031530104f10c533150040cf10000c41140c05440000447f70cf0000000000003000003000000000000000000000000000000000000000003c0000000050300000000000000cf300c0000003c700000000000fc00f4035400c4400300000140000000000cc0fc0007f0f015d5500000000000040004004014404d00050331431440340414cc701003315c1300000000040005
