000101100300c30c0447fdc03000c0044000003000000000400c000007400000054000014000005400000000000000000000000000000000000000000000000000000000000000000000100000000000040040000000014d0000c0000fc0000000000040000000000000403100503f7fff0000000000000fcc4400000000000c0000030000000000c000000110c004c0000000000003
