00007f0030104104fc000000000040fc0f34d01400c0551104345403303300000f0000c30010100c00000000000300000000000c0000000000000000000100000503100000000001c30300000000033dc00000000000330034030003c4050000c00100000000000000c00000c0f015d55000000000000000041045d4000c004103400314503400400030014004500000000000000c00
