0000000001004104f10d577010c1100c0000001100000000d004443010c000000000003c000000000000000000000000000000000000000000003fffc000000004030000000000010000000000000000000000000003c3c00400000004550000000000c00000000c0000000000f010d5500000000000000044004110004000c0130450555004040000000540451fdf00000000000100
