0000050000300f3c540030000000000400004030c000c0003410c040040000000c0000140000000000000000000000000000000000001000000000001000000403c00000000000040c0010000100000314000000000000010c000000000000000000000000000000000000000000000000000000c00000300c0000000003000c04003100004000000c0000001cc00000000000001300
