0000000004000000000004004004000000000000000000000000300000030000000000000300000000000003000000300000000000000000000000000000040c00040000000000000100400000000c00104000f000000400000000000000000030c000000000000000040000000000000000010000000500000000000000000040000000000000000000000000000000030f30000000
