000100100030c30c040001000040c404000c00030000000000000c030000003fc500303100000c10000000000000000000000000000000000000155540030003000100000000000c00c010000000300005000000000101400000c0000cf0000000000004000000000000000c00503f7ff3000000000000300c04000000c00100000000c0000040c000003c01d0003400000000000000
