000005000301cf3c1403fc10300c00044000700300000000400c0c1d40400000000000000000004c0000000000000000000000040000000000000000000000050f04000000000000104150000000001410000000000010400c0000000c0300000000c000000000050000000d4000000000000000000000000c00cc30cc00000041030030c0100000000030c003f43570000000000000
