0000000004000000000157400000100000001400000000001004440010c000000000000c000000c00000000000030000000000000000000003003fffc00000000400000000000000000000000000000033000004000400000400000000000000000000000c0000c000000c03f00010d0150000100000030004000014010000c00f0000100000000000500000311fdc00400004000000
