000100500300c0010443fd000040c001400000300000000000000010333100c0c0400c0000030000000000000000000000000000000000000000000000000000000000000000000000c0000000000000400000010001000000000c400000000000000040000000000000000c00403f400f000000000000000c0000000000010c003000000000000c04000001130030c0000000000000
