00003c30010000000d0d477110011030c004000100000000000040f410d300000f00000c000000000000000000000000000000000000000000003fffc000000000000000000000010000000000000000000000000007040034000000c4000000000000c00cc0000000000000003000d555000000000300000400440001010000000000040000000000000000310fd310000000000100
