0000730030404104fc01430000004cfc0300c55540c014000434404300f00000000000ff30000000000000000c000000000000000000000000000000000001000400100000000000fc033000000000010000000030c3c300340004030155c0c0300400000000000c00c01000f0f015d55000000000000000040305140501004003411355500403040030057034501000000003003d34
