000101000c0c030c0003fd030040c004000c0003c0000000000000033330330c144033305033c01500000000000000000000000000000000000015554000033000010000000000033000100300c300001500000000000140000400000c0c0000000004010000000000000c0030503f7ff000000000010000000000010310010c1003033c00000000c0000301d30030c0000000000c10
