00033f00311141043011570010011c000000041144000000c00744c70cc000000000000000000000000000000000000000000000000000300000000000000010010003000000000004f030000000003c3c0000000003f3f33400440c00400000000000000000000000cc00c3f0c000d15000000000000000040405d004000341c370400003c0004400001003710fdc00000300000000
