00000000400041043000570040050c000000001550000000d03400c01fc0000000000000000000c000000000000003000000000c0000400000000000000000000110000000000000000310010001003040000000000300000400000c00000000000000c0000010f000000013f0c000d5500000010000000504000000010000c01f0000004304000000400003410c10c0000000000107
