00034f0405544000f00d5030000100000000c01544c01411000040f71cc000000400003c0000000000000000000000000000000c00c0000000000000000000000000c00300000000003030003000003c0000000000003cc0000000c0c000c000000000000000000003000003c00000d55500000000000000040370c40040000500340c000000c000cc000033354c1f00000000000001
