0003000001000000300d5700000510000000000000000000000000f410c0000000000000000000000000000000000000000000000000000000003fffc000000000000000000000000000000000000000000000000000c0c00000000000000000000000000c00100000000003100fc01540000000000000004000000000000cc01fc000000000000000000007710fd3c0000000000000
