000005000000cf3c5400f000000c0454140070300000c330301cc1100400000000000004010000000000000000000000000000000000000000001555400000000c0000000000000000301000000000c3c0000000100010000c00000440c300000000000000000000004000010000000000000000000000000c000c000cc0000000c0303000400c000c003cc110f4350000000003030c
