00003f00f1514104fc00473010c040fc0004c41040c0400000c4470300c00000030000cff00003cf0000000000000000000000000000030000000000000000000500000000000000000030000000000c0000000030c303c0c4000103c051000000010000000040000000000400f015d5500000000000001004030010444d101103015c154c0000010c00144030500000000000000005
