0000000000000000000d5470400000000000000114001000000000c01fc0000004000000000300000000000000000000000000000003c00c0000000000000300001000030c000000030000000000000000000c0000c000c3000000c000000000000000c00c00103300104c03c00000d5500000000400030443000000000100f01cc000100000000000000003410c0f033300000000c0
