00033f3031504514fc00440000c540fcc004c010000010000004433700c304000f00300f030c03000000300000000000000000000000003000003fffc000000c15000000000000010c000000000000300f4000000000f33034000000c440000000054030300000000000400330f015d5500000000000030007004510004003000001001040340000c03c0000704c1fc0000000003c05
