00037f3000404104300c54004cc400cccc04d41500c045110034403700c000100300000f00000000000000000000000000000000000000000000000000000000014010000000000000033000000000004c000000000303033400000fc4010000000100c3f00000000000000000f010c55000000000000000040044d4044c0001c34c40504007040000400043311c1f00000000010004
