00000050103fc30d4044f1000040c451400c30300c4000000cc0cc1c33700c30c5030c01400000140000000000000000000000000000000000001550400000000f3000000000000303c0c0030000000030000000030000000c00cc1033c3000000040040000000003000000000403f403f0000000300000000000330000300000100c33cc10c00cc000000c1d3003400000000000040
