000145000cccc30c1000c1000000c000100040300040c303001fcc101401000005000044500000100000000000000000000000000000000000000000003003300f00000000001000000c000000000000000000000000415ddc0000000cf3000000001010000000100000000000557f7fff0000000000000c0c010030c30001f014033dfcc01c0c0003173ccc1dc000c00000000000c0
