00033000001004100001133000c000000000000000001000040103f40cc0000000000000000000000000000000000000000000000000000000003fffc00000010c300000000000000100000000000000f30000c00003cc30000010c00100000000000c0000301003c0c3000300f010c0150000000000300014004054010043340cc000400000001000040000310fdf140000000000c4
