00030030010000000001574110041400000000000000000000c040c01cc0000000000000000000000000000000000000000000000000000000003fffc00000000000000000000000000000000000000000000c000000c004000000000000000000000000030000cc03c0000330c000d0110000000000030040000000000000c4130040000300000040000000410fdc10000001000000
