00034f3000504410cccd040c00c000fcc000c4111000400010045403100000103000003c000003f000000000000cc40000000000000000c000003fffc0000000410000000030000000000000100000000c000000000003c03000040015550000000040c00000000c000c00d000f010d555000000040000000400041144010000c00141554000040400041543005f1c00000000013004
