0001110010c3c30c4007f103c00c0010000c4030c000c000000cfc1c00300003054000011000001100000000000000000000000000000000000000000000000000000000000000000003000000000003c1000000000041001005001100c0000000040414400000003000003c30503f703f000000000000301c00037c00070d0000000333c400010000c00001d00004c0000000000300
