00003f0030504000fc000030000040fc3f00c01500c04044140043c73c3000000000000f0000100c00000000000000000000000000000000000000000000000005000000000000000f0330000000003ccf0000000000330034000003c455000000010000000000030c000003c03015154000000c00000000040044100541430500401f55503000000c0c154000500000000000000c40
