0003000000d171c40001433100000c000003000000001000c00003f530c000100000000000000000000000000000000000000000000000000000000000000001300003000003000004c0000c00000000cc000030000033c00000000001000000003000000000000c3000000300000000000000000000030004c00000000003353cc0004140c00000400c000031000000000000000030
