00011410500cc0005007f003f00fc4400000003300000000000c0c0c0700cc0cc5430c0140000014000000000000000000000000000001000000155540000000030000000000000000000000000000000000000000400000000000000000000000000440000300000000033000403f403f0000000000000c3c0000000003c00300c000f00000000010c0000dd0003400000000000f00
