000105c00333cf3c5007fdc3c03c0414040043f00030c303700cc1000000000031000000500000140000100000000000000000000000000000000045400000003f0c0000000000000000d00000000304350001000070015100000c0000c300000000004000000000010130003000003ff3000000000000300c000c000303c10300c030fc0000000cdf0030c1df003400000000000f00
