00003f00004040003001540000040c0000f4c001000040000034003310f000000400000000000400000030300000000000000000000000000000000000000000010300000000000130003000000000004c000000000030033000000cc000000000000c300000100000000003c00010d54500000001c00000470045c300400cc013400c10003000000000000375401fd0400300000000
