0001000000300000000001030000f400000d0003f003000000000000000c0cf3300000c000003000000000000000000000000000000000000000000040000000004100000000000000c310000000000005000000000040401000004000330000000011000000000001000000c0503f7ff0000000000000300c0000001f0000000000000c04000000c0000cc1000034c000000000000c
