00000f300050451430c1533100c4103cc000d40000000000d034500011c004100300000cc0c0003c0000300c0000000003000c000000300000030000c0000000051300000000000400403000000000003c000001000300003440100c045140000000003000001000000000c010c015d55101000000000400071301104000000010404050433400103400145330000000000300000500
