0001154010f3cf3c5003c100030cc010000c70000040c003401cfc1c00400000c5000000100000140000000000000000000000000000000000000000000000003f01000000000010000010000000000001000000004041501c00000130f30000000000110000000030000c0c00557f703f0004003000000f0c000f7003c40cc0010000f000000100c0040ccc100034c000000000130c
