00003f0030144514fc0000000cc0403c3f00c014400c444014345000c1c0100c0f0000fff00003300000300000000000000000030003000000000000000000000543000030000000300030c00000003d3c00000000f33000340004000451000000000003f000000000c0000000f015c00000000001000000040041d004410000004c1314403000040030144000500000000000003044
