3170c886489
2a073e03534c
1b4d69481099
2ba8652c02f8
3170c886489
2a073e03534c
1b4d69481099
2ba8652c02f8
3170c886489
2a073e03534c
1b4d69481099
2ba8652c02f8
3170c886489
2a073e03534c
1b4d69481099
2ba8652c02f8
3170c886489
2a073e03534c
1b4d69481099
2ba8652c02f8
3170c886489
2a073e03534c
1b4d69481099
2ba8652c02f8
3170c886489
2a073e03534c
1b4d69481099
2ba8652c02f8
3170c886489
2a073e03534c
1b4d69481099
2ba8652c02f8
3170c886489
2a073e03534c
1b4d69481099
2ba8652c02f8
