18ba
6c05
38ef
4fce
2caa
6e4c
ff1
3d3e
3804
122c
21bd
2732
5a3d
6253
13a9
6bed
3f8
7f7b
726a
17e0
6488
2a03
77ae
c8e
410a
4f6e
221c
1eaf
5639
592a
f82
3849
1c8b
4997
7f46
4d02
3322
1738
2026
4137
957
34fc
5dc5
1048
7bcd
23b6
19c
28e2
3578
77c8
3324
43f6
46de
2cbf
6fe3
47bf
6a14
7c52
91d
525a
1cd7
3330
1880
3327
