7947
6842
119e
5335
3380
6676
786c
2699
68d7
3ec6
2d1c
1984
4485
5
32df
7503
4982
4c8f
4112
6539
7326
2110
1360
bc4
5d24
2823
5a25
7eb2
5df7
3c63
72a
7415
2edf
1ea4
2d16
52eb
7c64
260f
1e29
1e79
62a2
76ad
4139
158f
234
913
46f4
7b47
e92
eec
3025
4d3
1718
5673
22a7
35ef
1213
6a24
33e
17b3
f2f
74f4
4488
59d5
687b
11c
2464
2724
1bb4
47f5
1876
963
79e
786c
76ef
6806
5bef
4cf2
4a2d
101b
4bf9
4d27
11d7
2e5d
356b
2cd2
bf6
73b8
5d2c
5a5a
78bb
3fb8
5f05
78e0
6a9a
1131
346a
2f04
1a28
5cd6
38bb
5d38
69d7
6b9f
25
189a
6e39
384d
7609
6638
3741
27ce
457a
64a
1cd7
3a85
6a82
35ec
5d8
2924
4c70
650a
78df
1140
9b
4667
17dc
506a
14dd
2e0c
424e
1dfb
5ff
e34
efd
7e9c
ccc
657c
7f0e
7162
1a7c
5e50
5567
76ff
5155
9c3
27c9
5fb9
1a83
3f95
1ae
53bc
5e96
3c09
a7c
3a74
6eee
1d1d
33b4
6a
21af
49b4
71b9
ea7
59f8
2d89
757c
333a
4cd3
6b3d
51fd
5172
5f89
1e87
1d9c
463a
559d
423a
334b
1e3a
27a5
34d6
61f9
670e
5061
2d53
6739
1cf4
4cb5
2424
54cb
23a1
3e71
7be4
3e8c
63c2
7460
6d0f
c23
2693
1a8d
6a46
5cfb
3e8f
492c
7eef
4c86
a3d
577c
308
3653
7fa7
3f9
7393
54e1
36fb
5ddd
1693
38f9
de
3bf8
6b84
44cf
5704
3cd0
26b
2387
6761
22e9
619a
1b22
285
ac2
7668
16fc
247c
e8d
1dc8
4f43
105d
5df7
3afe
4f1
6af5
2484
550c
392b
3266
4d58
72c4
4cac
547b
158
dd8
460c
35a8
52df
3992
48e5
5431
2a4a
394d
673a
16ed
4d20
2959
306e
311c
6388
210
3316
72a6
6bc7
20c2
691f
41f7
2b4e
2eec
772b
67ea
33ba
374e
781b
241
176a
39b1
5414
24d3
6de8
7a00
13b1
2adf
6e53
a3
d29
79d8
5f8d
6e7b
7438
6cb
24a8
7ab0
41a8
ebf
121
5bf0
1bb5
5d3
517e
66d4
2b82
12fc
7ef1
27f5
51c7
60a0
57cd
50ee
2d84
64d7
6f0
e52
29f5
7210
3a5c
7323
2d45
5c70
521b
769c
2b82
10e3
4c4b
7b44
491a
3f75
6325
34be
7f0d
202c
3314
98b
1360
2f09
6158
6a59
18c8
2723
7c31
2486
7739
7faf
147f
542e
740e
2017
6e42
5cff
2b6c
551c
19b3
287a
636d
20b7
64e5
467
1b0
592c
54c3
7503
4650
422f
461c
3643
2fd9
33be
6120
2f3a
589e
662e
5653
4956
23f2
4f9f
5652
14e9
6268
2e43
54ed
2e09
3e67
1ec9
2244
4a4e
5c61
116c
14ca
6b4b
2ac6
2d85
5516
5477
3a8d
17c2
6efb
47ef
43f2
651b
61d7
225b
1766
175c
8dc
32df
3f75
1bf6
145b
7cb4
194c
7d3b
5ec3
5769
1166
4bb
6e76
12e2
2448
134b
523b
da
4284
efe
1aa
3928
4990
6ecd
3638
31ba
7d66
31f5
2c09
3995
3979
6d04
1ed0
1772
6c28
4cf0
7344
f87
6f12
5c8
26ce
1e38
1953
2794
26cc
56a0
1cb4
3986
1653
3c97
780d
6f44
1706
415d
419
5072
3f12
6910
3659
68e6
7f09
5256
2c39
378d
7b86
3af2
716
4a41
7c09
b11
7694
62d9
6215
2962
d2
2301
1aaa
5c9d
6c0c
2101
50d9
5423
581e
4a55
108a
48c
2739
1539
3f90
4a2b
c3b
73e8
7f2a
5405
ce3
7c2e
153a
3257
1283
665a
2290
10dd
412d
669c
647f
7633
575
1aed
12ef
213f
4d5f
6b72
37a
52bd
132f
3ae6
6e29
25f3
58bf
12b4
667c
90f
fb9
6415
503e
9
169b
78b0
1424
5a35
10df
2835
77e7
2b19
5c33
5fab
736f
419f
2f24
40d8
2955
290c
64c8
4523
2f2b
60a5
5c43
7f5d
6b55
63aa
68b0
6cbc
3329
5598
7d23
15e0
52ac
46d4
2ad3
10c7
1064
c6
387a
5c95
473d
2e8e
310c
62f5
5d7
6d8f
65c5
63e0
1e8d
4b16
623f
3df8
3bfc
44a3
17e7
65bd
6641
7a89
3268
7e90
2e33
2fbe
f0e
4bf3
5b24
19d0
909
756b
165
156b
4e99
677a
21c9
289b
457a
660c
4c7a
6e6
5004
295d
3fca
51fd
554a
1433
6f8a
2bf2
66c4
751f
4369
2612
6d87
f50
1c4
3734
6068
17c0
49f8
988
3fd
1748
100f
4843
22c5
5e06
7e30
2be5
12d2
30d2
17d
f3a
39b4
1bc4
2f0c
b66
43d1
7bd4
2a13
5101
459b
2c38
530a
5084
48f9
1f9a
586a
36f0
1312
b67
3106
2217
62ef
5da1
4100
6ad3
5047
11d
1c87
1957
226a
5f94
19b9
440c
7cd6
55f3
7a93
1a73
7649
569f
1ded
78e3
7d3b
56e1
23f6
59f9
651a
30c1
2784
2af1
24bb
4c76
595e
1d1a
36ce
6040
6530
53b7
4a88
5397
2fe8
50f9
7972
5af6
6ae4
49f0
77f6
2f26
203
72b0
4c31
4480
5da6
75de
263a
6349
b49
1d9
6135
4769
26e8
fae
7998
63f3
5c10
30b8
4957
b84
4b61
696
9eb
2a2c
c47
2eee
2fe3
586d
6402
c0f
60d9
5d82
7adb
2c82
90c
6fff
2a9b
1b07
3ad6
51c2
7115
51ad
10fb
5de3
dc6
1806
5330
2276
5e7f
3615
4400
3bc5
7f0a
53a7
5002
6405