f
6c
75
60
72
26
37
2b
4e
1b
6
1e
68
2
31
4c
4b
58
71
7b
6e
20
3f
4
14
4f
50
43
78
15
41
65
74
11
6c
55
28
7e
1a
40
8
6a
1e
1c
34
41
80
55
25
13
32
58
7b
d
e
30
60
13
43
1a
7
2c
43
1b
56
4d
15
8
6
17
7e
14
77
1b
58
80
58
21
1f
2b
37
21
6d
7b
7b
1
21
6e
5d
4e
38
60
74
30
31
7e
47
29
e
36
39
2d
b
35
71
0
2b
63
37
6f
2b
56
65
2a
7f
4f
5
71
2e
5e
a
19
75
60
75
e
d
80