41
4c
60
3a
35
30
27
4d
46
1
b
58
7a
48
3f
48
21
3a
22
5a
b
28
61
23
75
1d
71
b
40
43
73
54
4f
65
3b
66
6
7a
56
5f
3a
3b
38
31
40
36
d
5e
52
5f
1
46
5f
40
20
65
0
1e
80
22
64
69
40
41
1e
6e
69
63
13
2c
32
7b
22
73
77
19
2d
1a
34
1b
57
13
18
d
4f
0
12
36
17
3a
21
38
d
40
7b
5a
3d
65
66
66
5d
69
7
5f
41
6
70
7c
32
30
40
17
b
5c
2b
8
2b
30
19
1
21
a
e
7e
3d
3a
42
2